[UNK]
[PAD]
^
.
,
"
!
?
;
:
--
-
(
)
<NEWLINE>
'
's
't
're
'm
'd
##a
##b
##c
##d
##e
##f
##g
##h
##i
##j
##k
##l
##m
##n
##o
##p
##q
##r
##s
##t
##u
##v
##w
##x
##y
##z
##æ
##œ
##ɯ
##α
##ε
##θ
##ι
##λ
##ς
##σ
##τ
##υ
##χ
##ϯ
##а
##в
##г
##д
##е
##з
##и
##м
##н
##о
##п
##р
##с
##т
##щ
##ѿ
##ᚲ
##ᛉ
a
b
c
d
e
f
g
h
i
j
k
l
m
n
o
p
q
r
s
t
u
v
w
x
y
z
æ
ʫ
θ
ι
σ
τ
υ
χ
в
к
н
п
с
э
ᛁ
th
##er
the
##in
##ed
##ou
##nd
##ing
##at
to
##en
##or
##ar
##es
##on
##is
and
of
##an
##as
##ll
##it
in
he
##ad
be
##om
sh
##id
##re
wh
##le
##ow
you
##ot
##gh
##ld
##ut
it
was
##et
her
that
##ly
on
##al
st
##ch
##se
##ve
##im
sa
his
##st
as
##ce
##ent
she
##ght
##ith
ha
for
##ion
##ur
##ir
had
##ay
with
##ere
re
##ould
##ck
##ver
##oo
said
not
an
at
##ter
##ight
him
##ct
##her
but
fr
##all
##ke
se
##ain
me
##ess
we
##ill
so
##am
##pp
is
li
##ro
have
##el
do
##ri
ne
ch
su
##ard
my
##il
##ra
##ome
de
they
##est
no
##ore
this
##ant
##ic
from
sp
all
##ge
con
up
what
kn
##ind
##ble
##ust
were
out
##ul
al
##rou
##us
##hing
##out
would
##ook
one
##ers
if
le
##um
by
##one
them
ex
been
##un
whi
there
##ood
##ack
or
##em
##sel
##ie
man
wor
##ak
##art
##ist
##ol
fe
##op
could
en
ab
##and
##ap
go
##ation
##ong
int
##os
mr
##ate
##own
thou
then
un
your
##ast
who
##self
ag
tr
##ect
like
when
##our
##if
which
look
pl
cl
com
ro
##way
##ide
are
##ous
##ven
##ort
some
##ep
their
any
will
into
ar
##ked
bl
fa
##urn
know
##ink
how
br
qu
more
mo
pr
##ther
##ally
tim
##ake
##itt
about
##ound
##ive
back
too
can
##ity
##ig
##ery
##au
pro
other
##ose
now
##ved
did
than
ever
##reat
again
##ach
##ade
af
us
hand
##ish
##th
am
##ure
see
##ear
way
##ag
down
co
##nder
tw
ad
time
##ft
sc
##ward
fl
should
##ell
##ry
think
##ame
over
very
pe
im
##other
##ine
##ence
##wn
sm
##ather
lo
##qu
##able
##ving
mar
##fore
##ite
thought
po
off
just
##pl
well
##ass
bo
only
##ies
##pt
##ance
##ull
##ick
##ice
per
##are
##ab
ey
##ings
before
even
ac
##ang
mu
##orm
som
##ber
##per
##led
somet
sl
dis
say
##ire
##ath
wa
##ace
good
gr
##iss
str
here
##pped
bet
gl
get
much
##ord
##ree
##ittle
little
after
rem
##age
long
##ious
want
##round
never
day
bec
every
##ment
let
made
##orn
fir
##ud
##ated
cont
away
something
##pr
two
fo
##ced
##rough
##ness
app
through
head
##ied
##av
##ople
turn
come
still
people
himself
own
##oun
under
seem
##end
##ady
where
##ff
right
has
might
##ip
eyes
##ful
pre
##ions
shall
##ough
##tain
##ried
part
asked
##ue
##co
res
##ting
##ild
room
##ted
light
old
##atch
##dd
kal
must
looked
first
##iz
though
make
em
such
our
##igh
miss
##oth
sw
##alk
##ty
need
##ew
des
##adin
##ark
el
##aking
##si
arm
att
spe
why
##ac
kaladin
##ened
wr
##inar
##ave
##ne
mrs
those
may
car
##iff
##fe
ho
cr
##pect
##ause
bel
feel
op
going
##ouse
its
ob
being
##elt
##ise
jo
##ered
##od
most
##sh
ke
men
##ves
##ily
ret
##gg
sk
##thing
work
comp
great
##atter
door
##ans
yes
dal
came
##ss
##cl
gu
these
word
sur
##ling
another
wom
##air
face
tell
dalinar
##ci
felt
toward
left
nothing
##ways
side
take
last
##ying
ind
beg
got
pass
happ
dr
##een
found
##owed
house
##ush
year
##ng
took
upon
te
without
seemed
because
mom
far
against
##aps
ra
##ase
##anc
mind
cons
place
night
wind
moment
always
near
enough
ste
##ever
##me
##raw
find
imp
ser
vo
cour
set
once
hel
##ater
knew
new
went
inter
##ale
##iend
around
herself
##uck
##ction
beh
few
dist
put
call
##li
ins
end
turned
war
supp
##ens
##int
storm
##ost
many
##ange
##ower
friend
young
yet
vin
life
acc
ass
##ether
things
##let
##ning
##ash
better
sir
##les
diff
father
saw
keep
ele
while
thing
##used
pos
gra
done
##be
##red
##ary
inst
looking
high
bu
##rew
sat
##de
sure
##ross
##aw
##owing
##olin
gi
##ons
##ult
pers
dark
##ared
return
hard
##med
ple
##ign
met
fin
##haps
hum
perhaps
watch
comm
##ory
##ock
woman
##ors
hands
##ertain
rep
##ah
wall
shallan
##less
##ised
hop
act
help
##cc
same
hal
##ead
small
ear
told
##ained
##iv
##ps
sil
pres
##ru
give
behind
real
##ition
##bb
pain
##osed
ter
belie
##ently
##ret
##man
kind
##xt
rel
##eth
##ched
alm
char
three
##ject
par
tra
quite
##ren
conf
wait
##iet
##ount
mi
child
##ately
mist
years
heard
each
ev
##ating
wax
cur
##ined
stood
world
city
seen
voice
##ks
##aught
##ished
##ows
pull
heart
reg
certain
##ually
##ner
adolin
kill
anything
start
betw
dear
##iled
between
open
##aring
fam
foll
course
##ense
lady
##ince
rest
vis
##ene
##ian
##aster
##ations
soon
almost
##alked
##ond
stand
power
mon
##cept
half
nodd
really
##ably
cap
cle
talk
underst
ref
inf
##fort
##essed
others
##ial
##ool
##sw
bre
##ents
##ces
##ield
##ten
air
hold
mean
care
##ned
lar
##uth
form
both
words
##ley
oh
read
##ither
##ple
remem
##ged
reach
##ention
contin
home
sim
black
walk
##ze
however
fell
tre
##br
##irl
##ph
##pping
god
col
lord
##ife
che
ent
nodded
answ
unt
elend
spo
sold
mur
unc
next
##ix
##fect
##ully
hu
began
##aken
ru
use
best
##ody
bes
stre
person
##ane
whis
scar
wanted
ground
remember
##ank
har
##gether
mother
run
min
##ular
dec
##act
##orr
sub
appear
sound
gave
##der
else
thr
##ped
love
gone
del
##body
bod
##ract
##ile
myself
days
inv
sn
bar
dead
bro
ri
##ister
##ued
having
##ual
##ia
##light
hon
gen
##up
add
deep
differ
red
across
speak
boy
soldi
##ical
aw
wo
hour
stone
fall
##ants
##ont
##umb
expl
nat
##sible
##idge
##zed
four
since
used
hear
##idd
##gn
dro
whisper
fight
breat
##its
ed
sy
least
occ
dire
list
poor
along
walked
until
girl
quest
##rought
king
##ken
quiet
##tered
inc
feet
leave
##uring
flo
##so
##ards
held
##iness
##ger
consid
expect
##ium
pleas
##press
someone
##als
brought
believe
close
##ured
book
matter
kel
hope
white
pa
rather
tried
quick
understand
##ired
together
##ove
ide
##aut
##sier
pur
kelsier
##ering
##ason
##ress
water
large
dou
##unt
less
soft
wish
inde
sent
doing
name
##bl
eng
ask
##ized
##men
##vers
able
land
##vered
repl
table
also
##ures
##ept
rec
##ushed
does
##ung
forward
called
sto
past
trying
##ets
wonder
##tle
pri
eas
coming
family
morn
hair
##cond
##ins
tri
squ
##ute
letter
gener
short
draw
fig
vi
sun
sec
##anced
prob
round
second
##itting
gent
everything
bed
pret
##side
##fully
breath
morning
strong
passed
##wh
taken
point
dale
ma
##bert
step
forg
##oney
stay
rock
ph
body
bright
indeed
serv
##ready
already
##amp
##oy
##iling
ext
whispered
feeling
cann
##ingers
among
blood
wrong
wife
sou
burn
##cess
##eng
det
scarlet
##mm
creat
craw
hur
ill
##ize
sle
##avan
fire
making
##outh
count
build
true
##dden
##ches
scarlett
##ided
##ited
##vel
front
returned
inside
def
meet
instead
du
nor
gentle
dep
kept
##anger
prom
dre
cut
pulled
adv
different
continued
ah
##ility
sister
known
##to
money
sudden
given
appro
bus
bad
full
sense
##ended
reason
trou
reco
mem
##esh
##ury
probably
##iously
gre
##ening
above
bit
lear
adm
interest
moved
dri
dem
opp
##sc
doub
cannot
spir
beside
alone
stra
maybe
floor
plan
dra
lead
wayne
##day
navan
navani
##ides
eye
##ta
##adi
death
brother
pal
##ey
started
leg
bridge
low
bring
move
##selves
cent
during
strange
eff
soldiers
reached
sch
shad
##airs
##cked
##cy
play
lau
pap
##arr
replied
surpr
##sp
either
often
standing
free
##ates
try
sing
sz
szeth
present
fort
##ength
entire
master
albert
hor
##ching
times
art
wood
mich
wee
whom
##ms
mil
stop
hall
idea
##gy
shook
cor
question
##ising
window
arms
bur
finally
laugh
five
stopped
prot
grou
##ible
slow
ang
taking
cir
disc
##ier
arri
##enty
sort
truth
lay
stud
fact
tem
spoke
##akes
##irt
##uff
metal
##ison
sazed
lad
cre
##bed
##ail
la
##aim
tou
lost
town
sit
##king
spren
ten
hund
hundred
ran
within
##oss
##ys
ve
sor
outside
radi
##riage
cra
son
##ton
##ances
fur
sever
##ones
soul
ga
fine
##ape
top
##gged
import
deal
##ments
##app
happened
##inted
##ames
##tagh
murtagh
bat
law
##ars
##icked
##medi
diffic
##by
exc
cold
danger
human
direct
smiled
##ities
coll
doubt
suppose
##rie
partic
##amed
##ically
till
thinking
##ages
needed
yourself
##ony
send
bene
sword
jas
##aint
circ
ir
immedi
##aining
##asi
ash
dest
abs
##nah
corn
break
whole
hus
##ines
become
##anged
longer
##oud
perfect
stepped
lift
compan
road
friends
trust
chur
several
##antly
glanced
express
ap
sitting
sign
##imes
live
marasi
##angel
raised
regard
street
chair
##ience
getting
stri
chap
evening
beaut
ago
##ny
opened
##bs
answer
particular
smo
const
bey
shoulder
beyond
group
terri
##no
foot
arr
michel
##form
case
##ope
six
##bly
ord
whether
ur
month
change
##sand
secret
sho
coun
enem
thousand
mis
thir
##ply
##aving
##land
pol
quickly
ship
fingers
##cks
##ots
##ived
##ored
michelangel
michelangelo
##ott
ready
holding
themselves
towards
##cer
led
jasnah
followed
women
attack
##ient
visit
sorry
##band
bare
guard
sky
lean
suff
requ
actually
church
comfort
dev
##otion
##rying
##ude
##ict
conv
crawley
respect
sometimes
tow
swe
##use
cal
watching
##iced
possible
begin
##aughter
pie
ign
wit
proper
##iding
later
##iew
##ump
cried
slight
prep
##lf
big
##reed
trans
figure
clear
##cri
din
mer
ren
certainly
exper
##ging
thank
imag
inqu
pat
husband
skin
object
##ains
sigh
##itted
became
##zz
mad
##where
uncle
crow
aunt
itself
everyone
##ming
##ief
approach
business
bra
killed
meant
appeared
nobody
show
attention
occas
##aged
moving
immediately
##field
exp
turning
cond
shard
please
id
closed
mus
fear
##lete
ones
##ats
line
happy
captain
pretty
mouth
##ser
blue
##utes
sleep
desp
dor
sol
##uct
fool
##ased
except
##ative
##arth
##isted
cross
convers
sar
##ipped
rece
subject
says
##els
ven
##ement
children
walking
protect
pay
##ma
exact
##ote
##cious
hes
event
softly
rose
ann
complete
aff
frown
ale
win
ca
manner
saying
##mb
accept
broken
##cing
plate
pock
pract
important
mess
##gar
chr
chance
esc
##iting
suddenly
force
silence
twenty
##ship
contro
##oura
jud
##ancy
difficult
##ific
battle
darkness
talking
inform
gentleman
assum
waiting
kne
fair
##ashed
means
##erm
beneath
##ural
ros
building
worth
nearly
simply
caught
command
dut
hours
##ik
consider
##val
##ney
sal
rul
order
compl
##og
leaving
obser
maj
##ift
dropped
seeing
hardly
affect
slowly
thorn
hesit
##tern
##oof
post
patter
##bbed
minutes
gather
weap
##born
expected
##ught
heav
##ety
fill
tall
disco
story
##hn
##ceed
straight
dress
clos
##pren
##ili
grew
occasion
quar
##ination
##lled
trouble
##orrow
safe
john
##ested
lu
hit
##ices
below
strength
smile
christ
##tled
self
watched
mention
incl
prov
##bury
entered
army
stormlight
resp
hill
odd
whose
##ters
prev
quietly
tear
paused
warm
tor
position
##ingly
wound
enemy
lot
##sed
##empt
supposed
weak
sight
onto
##eless
##ories
general
running
da
glad
hat
van
##isf
##orth
##ald
none
months
storms
ce
di
parsh
##ram
##pper
##ident
av
anyone
tar
##owers
##vern
##raid
##rupt
pu
##illium
waxillium
cloth
bas
syl
mere
pattern
##cent
med
scre
##ime
nature
necess
afraid
prop
conversation
spirit
fortun
glass
pen
died
prof
heal
##ert
speaking
crowd
shar
##itch
walls
drawing
##bit
living
##idence
accom
##ilt
gall
pushed
chapter
##aded
guards
gun
##apped
##aced
lights
late
drink
##ax
food
distance
est
##iful
dar
likely
silent
wore
##ented
further
listen
whatever
##spect
die
summ
obv
shut
anx
mine
disapp
##attered
common
sarene
##ushing
##ett
steps
midd
horse
##roy
corner
palace
##ndon
equ
clim
worked
##inger
purp
##du
##ris
thoughts
easy
repe
determ
port
##aves
spear
forced
daughter
##ilar
working
enter
bree
##ai
fav
##na
remained
mike
wide
##owled
##old
demand
barely
##how
##inct
spent
pocket
arch
box
dinner
##oose
##fer
surv
bal
exactly
bell
opin
gard
lips
##lect
satisf
field
allom
view
tower
single
worse
giving
shout
drew
##fortun
##othing
lived
aleth
##ining
rain
##ager
enc
den
spr
control
emb
##umber
mag
empt
lim
##usion
##umst
pray
main
var
enj
##len
fellow
acqu
country
ought
today
cather
early
effect
##anging
##oden
raoden
cas
honor
venli
decl
state
impos
arrived
dam
cho
mel
fer
##gin
claim
sad
ham
##ending
##gate
carried
simple
##nect
grand
answered
added
waited
path
##lig
##ugg
gold
somehow
neck
court
disp
terrible
dangerous
breeze
doct
##aped
blade
ty
ly
shot
##zen
camp
bear
dream
##wards
##hy
tress
doroth
paper
##umped
er
changed
charac
account
treat
trad
##ution
mor
##ics
##umbled
realized
decided
green
gem
##com
sugg
knows
##ges
concer
recogn
seems
##aces
proble
creature
grace
meeting
kh
pleasure
makes
ster
##ancing
##roud
loved
circumst
middle
neither
week
radiant
fore
eight
cham
noticed
narr
using
##stone
connect
note
ble
direction
stan
married
##like
duty
##ought
legs
nearby
delight
##ession
##az
london
##ests
tone
pointed
##ench
settled
##bility
resol
sear
hung
hurt
carriage
allowed
purpose
oblig
shock
##kar
margar
margaret
shru
##arin
##read
fle
piece
expression
save
vill
attempt
frowned
cry
alive
learn
##cial
##ee
empty
dog
lines
yell
rab
##idden
##ien
eat
teach
books
write
sighed
cou
##oc
oath
ut
ge
destroy
pick
growing
##ster
mark
struck
fun
faith
opinion
surprised
##wise
##ishing
follow
fighting
susp
beautiful
ye
brer
tight
moun
fut
##iment
##vering
div
agree
wine
heavy
thick
joe
renarin
ton
liked
##ug
##ior
##mer
earli
##ergy
##ea
eventually
priv
offic
usual
wished
fallen
unfortun
nice
weeks
remembered
rid
spoken
rob
stanbury
stup
##ists
##itude
spot
brown
completely
hot
guess
wild
anyway
tears
##vely
##ric
block
##erv
##ners
##ues
considered
##ision
chest
catherine
bott
appar
band
##orted
##dom
fix
fright
##par
fan
soldier
jane
easily
##cul
veil
##itten
sharp
stro
weight
directly
touch
##gr
therefore
edge
wearing
pound
harm
enjoy
eager
impossible
knife
##head
third
##ism
crew
hol
pun
##oured
noble
bow
party
##ashing
fly
seat
besides
val
arg
##io
forgot
une
##miss
##cient
following
pulling
chas
mists
character
wrote
ahead
foc
rev
marriage
burst
fast
unless
flor
##bers
understood
lie
hist
pet
pict
school
clothing
super
tin
##ified
ladies
und
##ively
spook
sens
od
##using
knowing
honest
lit
company
trees
bir
deser
center
##house
ruler
future
earth
ris
grin
earlier
feelings
peace
doctor
fit
happen
angry
west
apart
laughed
final
proud
##ledge
particularly
auth
natural
fused
sick
##ives
catch
comes
##oned
##rief
##eal
information
windows
notice
colon
deli
##enth
gro
##lling
finished
job
##af
earn
hea
##hood
news
despite
fat
##ping
age
beginning
stat
calm
pack
promise
thin
stupid
bath
received
ancient
##claim
luck
##bled
press
learned
leaned
burning
publ
repeated
chee
number
##ortun
knowledge
ant
mass
spl
##unk
remark
surprise
forget
opportun
##angu
##iliar
slightly
dust
##inting
sade
ball
rich
smoke
worried
bound
broke
poss
grow
##umble
sadeas
gate
##inary
garden
##father
##uss
looks
passing
teeth
offer
##ustr
stared
##lu
servant
filled
##son
necessary
doors
##cho
dom
oppos
ruin
presence
ori
threat
##har
threw
effort
avo
writing
##ask
##ler
##itation
humans
pale
vent
##lord
##retched
sides
knock
picked
staring
miles
strugg
iron
##ality
loc
##rib
##iety
##well
coat
showed
rough
possi
kol
##ls
commun
aside
shadow
##pressed
former
sand
situ
servants
placed
falling
##ike
rising
fold
affection
##ously
moon
written
clean
chamber
##cend
sea
##ians
mut
##mar
remain
tired
##aff
weapon
circumstances
##inc
##pe
surround
escape
lives
##oring
cast
powerful
somewhere
determined
marry
powers
bul
faint
prison
jour
believed
fanny
seven
teft
##lish
suit
steel
plain
hast
cloud
imm
merely
major
##cell
smiling
reading
hun
silver
stick
trevely
##ustom
perfectly
burned
trevelyan
exh
explained
descri
author
##action
hesitated
duane
cous
smell
covered
joined
gh
void
distant
experience
stones
elant
succ
cand
lying
remind
obviously
##ayed
langu
incre
yours
motion
##pse
##ib
length
lyd
##aming
cart
questions
##endi
##bbing
neigh
join
koloss
##adon
neighb
ways
mid
colonel
spirits
allow
beat
geor
##acy
mountain
soci
suspect
##und
parshendi
reply
az
speed
entirely
##adel
separ
##he
wid
occup
rust
hr
mistress
purs
clo
shrugged
##sequ
##oved
tun
extra
rooms
relig
space
north
##come
closer
firm
##under
stairs
sweet
unf
surely
streets
polit
hidden
approached
suspic
capt
familiar
##ec
talked
fresh
stuff
shape
alethi
impress
gas
hate
##oon
otherwise
knees
hoped
worry
##etch
push
kiss
rele
roof
schol
report
design
mary
cause
bri
heaven
carry
ring
sev
keeping
youth
glowing
coach
##avang
##umi
paid
##athen
##ho
carefully
agreed
taravang
taravangian
song
mat
gav
dim
##spe
loud
bottom
fro
##kes
bull
advant
problem
formed
hide
tast
##ries
explain
letting
govern
vision
neg
putting
laid
emp
toss
desk
born
##ii
fif
thro
apparently
telling
##uly
contr
wel
opportunity
##bear
excell
tal
##ables
fond
gest
cat
dare
##ication
rhy
##cking
##ences
absol
wear
##enn
##stairs
aware
fault
prec
finger
odium
bill
knight
hrathen
origin
yumi
places
hors
spec
painter
shaking
bag
cru
os
pleased
evil
betr
##room
serious
##wood
prefer
mod
##ator
south
##ror
society
##ral
careful
cup
##oming
anim
##itor
heath
color
bond
##aa
conscious
exam
##here
kitch
viol
occur
flat
dozen
wooden
letters
dread
rhyth
##fast
##te
bank
lightsong
tea
##nowled
study
minute
steris
wants
moments
##osing
shirt
moash
pleasant
ack
##ency
shoulders
mam
##erence
##otions
shardbl
sole
disg
##borne
##storm
attend
##lly
managed
uncom
##ruct
gri
opening
demanded
couple
fab
cam
attach
nom
acknowled
tremb
extre
charge
absolute
belong
##ams
##udd
retreat
sounds
lose
broad
fart
orders
##icate
eld
fal
##eping
row
proceed
exist
respon
mill
##rant
##cially
##olo
shattered
star
##aled
##claimed
square
thirty
thus
match
marsh
forgotten
impro
pan
repr
##lain
grown
horses
reve
mic
##ron
stories
##ouses
unif
damn
##ids
willing
everybody
rolled
##orough
spee
appre
##atic
grabbed
appearance
imagine
memory
##ades
test
includ
river
situation
##ourage
hero
service
civ
afterwards
##bre
corr
shadows
ard
journey
##ament
public
##ub
pointing
lydgate
##aked
bless
##cliff
breakfast
##ises
listening
marble
meaning
spread
##ikes
skaa
##ucked
reb
drawn
osborne
hallway
##venna
history
##tering
yeah
gods
collect
vivenna
##ension
##ital
##ores
hole
sig
marian
##unch
greater
produ
##umin
touched
grat
cord
comple
drag
##ails
promised
afterno
boys
ended
discovered
height
consequ
nose
norm
uniform
carrying
anger
accord
emer
rom
pressed
##cil
usually
troo
##icated
conce
intell
finding
pair
empire
drive
lab
jew
prepared
##ker
oli
lower
heathcliff
kitchen
mentioned
success
imper
kingdom
tree
##ring
##bing
cop
##racted
unfortunately
invol
##rect
farther
intim
inspect
snapped
hurried
##que
passion
influ
assass
plains
##usted
admir
##uit
anne
weather
hell
herald
##elia
trave
forth
built
inno
copper
wra
sake
emotion
jumped
##ammed
rare
##ption
wand
##rent
stormfather
beauty
grass
##eness
tom
##ford
afternoon
opposite
##antic
dorothea
locked
truck
dying
failed
tess
##olog
ears
##ips
distur
disappo
cab
eliz
gathered
##apping
faces
foolish
east
feat
sounded
truly
##eling
bother
blank
village
espe
shop
rys
rysn
emma
lightey
fred
intended
office
persu
##ument
##unted
lop
chasm
temper
discover
personal
convin
##oni
pill
sen
excuse
pul
eyed
##ese
brightness
##den
rebe
leaning
helped
##right
cost
##ov
train
cheer
depart
glo
scra
vol
continue
tong
fash
spun
##run
shouted
clothes
fancy
chin
choice
extreme
##mn
##itary
noise
oliver
##ume
fail
##amond
tender
joy
support
observed
inquis
micaw
cousin
discuss
##pan
##izing
armor
pope
slipped
lor
card
interesting
perform
##ham
younger
lan
pip
majest
aband
##andra
listened
especially
anxious
advantage
##yl
micawber
hearing
goes
confidence
special
##jo
older
happiness
clever
alar
curious
gly
wet
suggest
wed
crossed
##idas
alth
farm
##agg
##ague
cro
##iture
pop
park
nomad
neighbour
interrupt
pot
rlain
obliged
excellent
repres
##rel
willi
although
lifted
lopen
asking
phys
similar
##aling
##ipping
invest
##ooke
fought
conduct
bodies
ban
blow
comfortable
fashion
skill
pushing
ceiling
##ploy
surge
##iles
##uted
rush
meas
##zy
entr
mostly
training
radiants
regret
thrown
offered
##nel
george
##rian
highpr
hanging
useful
##erable
desire
drop
leading
language
##zil
rap
reflect
twel
shardblade
project
doorway
waved
mach
assist
favour
twice
whe
scram
speech
board
taught
buildings
concl
dry
handed
##atched
lod
emotions
tent
nine
unw
mort
result
gaz
houses
morrow
##ork
##inging
##heres
nora
suidas
sour
venture
desper
level
fortune
vas
papa
##ishop
wonderful
dressed
##ressed
weapons
choose
dat
picture
ast
private
lint
florence
grey
inj
ine
pegg
fem
health
##ruction
distinct
spend
wash
brief
respond
throat
jack
scul
sculpt
difference
companion
engaged
numb
##abeth
##inor
playing
bowed
acquaint
##nday
furn
spheres
elho
elhokar
##inking
enorm
shoot
inn
fre
calling
heads
##we
##nes
##ounced
narrow
troops
anybody
##ires
backward
larger
##att
regarded
##ensive
refused
blind
hom
removed
stir
raw
snow
##otty
honour
rate
station
practice
pride
sav
murder
killing
fully
loss
##ading
kandra
considering
ment
heat
landed
sigzil
notes
begun
glance
elizabeth
##mon
fixed
strike
##osen
gar
queen
eyebr
plat
peggotty
hen
accompan
class
assumed
bent
bird
chosen
sail
scr
stab
key
docks
handsome
withd
throwing
##illa
upward
##umbling
mamma
bishop
accompl
flesh
##inked
##ella
wondered
girls
##iot
england
cover
admitted
size
frightened
linton
cult
##cles
kholin
employ
bold
##gress
avoid
judge
confused
cha
exha
pin
created
echo
game
mir
##bles
enormous
rhythm
sym
exclaimed
energy
busy
share
leaves
##alth
mot
##ius
grim
##asons
pew
coin
harlen
members
thanks
boots
##dles
climbed
nerv
shield
glancing
stumbled
freed
quarter
convinced
##ivid
fifty
fol
##ads
ghost
grave
false
lantern
sne
ess
##acon
noted
brooke
deb
##seless
stepping
##eter
cloak
pounds
required
laughing
caused
throw
siri
##uing
tied
bridgemen
pity
alto
earnest
depend
log
cath
wip
becoming
##book
##ify
wise
##ially
emper
hers
pieces
lou
instant
yellow
beard
##bo
page
esh
pure
stayed
jump
rome
altogether
addo
ordered
tiny
fabri
##ilities
##rodu
chill
phil
stom
plateau
##gment
##bble
arrange
tu
dobb
exec
gaze
pit
yard
gavilar
bab
der
bread
oak
luth
##iving
prove
##ault
engage
horri
annoy
##race
##ainted
rope
luthadel
drove
##ishment
smooth
glow
##sing
tongue
temp
gir
impl
breaking
sunlight
needs
comb
##ina
plans
summer
##itions
surf
##uc
bitter
dull
habit
taste
##night
check
action
inquir
figures
beast
##inder
vict
events
tens
risk
address
hated
allomanc
intellig
##iant
decision
bringing
declared
corpse
gentlemen
incred
twelve
saved
loose
realize
brightlord
music
regular
pause
##isc
stair
understanding
oper
nur
instinct
stronger
##cely
wis
##oted
libr
##ici
##osition
trained
elantris
sphere
breast
acquaintance
rag
terris
##ulty
correct
william
french
create
english
dismiss
shame
lif
scri
twisted
area
elinor
cool
##combe
smaller
worst
bones
absolutely
##riet
##ustration
deg
dav
stiff
##hand
various
fen
shardbear
prin
showing
welcome
##arrass
wounded
emperor
trade
##yal
mal
et
yester
##umed
parl
##anted
rise
hint
explan
##ouch
disappear
##osity
wag
interv
rocks
slave
forehead
##more
pewter
##urally
waist
fortunately
##xed
##umn
yesterday
sending
terms
##aker
spite
worn
kindness
dun
embarrass
tonight
##chester
upstairs
influence
market
##fied
travel
occurred
##ulous
amar
##stem
##oux
horr
##agger
christian
##spren
accepted
process
murd
uncomfort
galladon
knelt
liber
##illing
##awn
rabbit
thinks
##iru
raboni
raboniel
##ding
##plate
vasher
##path
assume
seek
folded
passage
reaching
##achel
perm
denth
flying
island
highstorm
##gging
aud
##icing
tossed
grinned
unh
creatures
difficulty
greatest
surrounded
dorothy
ignored
urith
urithiru
deeply
interested
amaz
mistborn
##tained
uns
generally
matters
windrun
je
##she
magn
shades
visible
brill
lately
solemn
admit
cred
majesty
anxiety
proof
pra
system
possibly
slee
somebody
##amps
eshon
eshonai
scene
bran
serve
##chief
uni
returning
remaining
paint
perci
percival
ver
vanished
authority
relax
ignor
suggested
crack
ordinary
##zes
mans
##ille
corrid
relief
##bling
slaves
higher
names
shi
wishes
mistake
concern
cett
task
unable
priest
introdu
irr
span
map
works
forty
surviv
destroyed
happening
witness
thousands
##illy
breathing
thunder
bachel
cook
afford
swung
##etic
rushed
upper
dragon
amaram
charl
##iction
accident
##inite
fare
spin
##ses
##aan
clergy
won
raising
ax
record
##bon
named
cursed
metals
blinked
library
shel
utter
answers
clock
arrival
reser
##vey
obvious
holy
candle
cell
ideas
##vation
hy
cheek
platform
soulc
##inal
fox
stack
amelia
dockson
unl
crying
rever
hamm
gotten
suppl
##arts
satisfaction
cow
intention
##eding
trembling
prevent
satisfied
##iod
##don
colors
thorough
reasons
mater
henry
unlike
civil
stomach
stock
clearly
setting
recoll
recollect
lock
belt
##omen
hiding
##key
approaching
features
imagined
lily
cavern
lack
missed
capable
roshar
played
##itive
sty
##pri
holl
mall
armies
throne
##isting
obey
descend
spect
##ette
ride
shr
##str
##gan
concerned
yan
frequ
##icip
perce
##ology
appreci
movement
straff
hale
flash
defe
##pet
shif
ourselves
slammed
base
mountains
focused
wealth
thom
hundreds
entrance
dig
message
sympath
useless
jer
papers
casau
nervous
ber
trick
manage
##isp
##acing
rule
##ils
spring
period
contract
merch
##eds
stretched
bon
cruel
faced
jose
constant
circle
fields
ability
thay
estab
rum
solid
casaubon
normal
ships
joseph
shown
anticip
absence
scarcely
relation
decide
leather
deck
surface
seated
smart
lighteyes
contem
moder
dod
brothers
chose
justice
gates
groan
##stro
somewh
##oci
naturally
##rence
screamed
gray
lies
somewhat
sacri
ul
pee
horn
suc
double
nons
appl
unex
succeed
##iar
##ustomed
sunday
##icient
suffer
chief
##cock
shake
innocent
uncertain
interp
crou
displ
##itable
asse
dey
##ndle
prospect
cler
profession
frank
resolved
tempt
##uded
buy
mra
aston
##uous
sin
san
searching
checked
allomancy
mraize
judgment
voices
stuck
voidbr
excited
cott
stret
previous
ell
latter
colour
ashamed
request
driven
balc
central
assassin
blame
host
##stones
forms
sacrif
##ential
price
sorrow
winter
painful
property
diss
elder
sed
##irin
giraut
individ
associ
confident
physical
##cca
cheeks
wrapped
por
focus
##ellion
planning
stranger
instantly
lur
impression
oce
figured
copperfield
alethkar
treated
##irm
##mes
thomas
glim
##intment
##ico
saf
squee
memories
##blood
dropping
freedom
bot
instruct
##asc
condition
image
visions
expressed
##ighty
##worth
sie
lirin
##elled
reminded
terror
tot
caut
scout
##uz
zane
thornton
minds
recognized
unk
existence
priests
alley
indiff
lowered
dil
rot
awk
awkward
engine
pier
feared
advice
pred
tunnel
atium
melaan
##ability
spark
##ville
realm
faded
nonsense
golden
boat
##igg
dean
refer
dance
betray
rat
connected
receive
chuck
belief
morr
crawford
agreeable
clas
spare
counter
fift
##eav
gift
glas
endeav
thrust
studied
whenever
due
learning
fish
equal
painting
hey
##omm
grate
enemies
ach
resting
painted
conqu
bore
explanation
##ba
thaylen
extremely
counten
pretend
##ardon
silly
##aping
clare
accustomed
steady
shoes
glascock
proved
eating
crim
including
##indw
murm
hills
progress
##ts
##zzle
harmony
marianne
bulstro
##uries
uncomfortable
connection
secure
according
search
##ites
sha
battlefield
grie
parents
##igned
recall
blush
settle
secrets
##eric
amount
claimed
##oti
traddles
bulstrode
hurry
miserable
religion
almighty
impat
elect
section
##ieved
sketch
trot
suspected
sisters
nodding
froze
rosamond
dece
starting
ease
county
cities
original
james
occasionally
gently
##astic
gasped
anymore
asle
asleep
flew
##ibly
morrison
hoping
individual
##arily
beck
angel
##iece
resist
tindw
tindwyl
tit
brilliant
involved
mud
##ara
parshmen
dir
bottle
##sers
ident
government
##get
dobbin
lap
copy
##iable
team
scrambled
##idently
##mission
##hod
tensoon
gathering
represent
leaped
mission
parts
forgive
##ias
easier
bearing
attacked
huge
rawdon
temple
clouds
cheerful
vast
staying
custom
##gs
dawn
gown
confusion
swall
tend
##add
domin
##bson
##asing
material
##for
balcony
trailed
coff
##ception
um
pitt
rebecca
plenty
rail
marked
swear
precise
##enger
nin
shocked
moonlight
trousers
drift
##iance
equally
wicked
organ
sweat
##ational
shin
charles
appo
##work
forces
scholar
helm
gibson
wanting
si
uncons
exer
waving
##iments
##lict
bathshe
bathsheba
favor
phrant
phrantzes
##ples
scholars
wondering
##iano
ocean
vague
fourth
exch
intent
yards
don
activ
storming
backed
mallory
frag
bend
takes
hearth
##aws
##step
##enz
properly
muttered
countenance
plant
lightning
regardless
style
bought
type
apolog
awful
neat
rowley
##hold
##omy
staff
cracked
##utz
complex
forb
##uch
grunted
forest
cough
trip
strode
bron
jos
yomen
##ground
ripped
##itors
served
gets
##pected
shell
cryst
plants
##wi
grantly
gemstone
##ealous
interrupted
seconds
arranged
warmth
##istic
benef
tech
survive
unhapp
buried
method
##ulated
hugh
heralds
trusted
pardon
##pses
fifteen
seized
##aly
anywhere
##hern
meal
wy
struct
dirty
assure
weakness
leader
patch
amb
agnes
handle
impr
bol
cos
virt
highprince
gle
sooner
curi
council
##set
cutting
vers
xx
##ino
##mind
planet
maid
##bow
asc
shared
encoura
superior
provided
inh
knocked
nale
amuse
##ky
trium
ignore
grip
wuz
##sm
corridor
##ata
dora
crem
consequence
##my
tur
wave
excit
iss
striking
unexpected
harriet
archde
expecting
##olation
hang
flood
archdeacon
holmes
torn
consciousness
points
##iddy
triumph
##ission
spy
occupied
addition
##ouring
myst
machine
dash
gut
env
source
disag
chall
presently
souls
rarely
fist
bloody
novel
lucky
mood
##illed
##kin
rank
breathed
##uge
##itated
schem
gemstones
wedding
wick
hos
flames
fate
eyebrow
excitement
bald
transform
urg
worthy
singers
lun
growled
distracted
cared
courage
dirt
experien
##raph
tool
shade
prim
entering
touching
reck
wat
##ura
vain
curiosity
americ
wretched
escaped
contempl
##stand
problems
drinking
fears
ridic
sheet
##ays
sought
ow
dish
##go
fetch
measure
cu
##velop
attached
missing
coins
presented
rested
seeking
uneas
brow
techn
refuse
sleeping
evidence
##ature
indign
##utation
famil
grounds
knee
au
jes
jealous
lip
value
##anges
gives
abandoned
shoved
suffered
distress
unus
##ification
##iest
educ
revol
baby
courty
lawrence
cottage
unfortunate
##very
alarm
prepar
military
vibr
ling
roman
riding
column
##istol
tomorrow
##yn
parish
##reh
##forth
dancing
birth
grad
##keep
contained
steer
kid
bronze
specific
clergyman
flowers
ep
loo
exhausted
leaders
##uke
losing
safety
indul
##uses
current
ves
spike
orese
oreseur
warc
ett
delicate
##omed
inquired
assured
##apsed
stew
courtyard
pecul
reluct
manners
rejo
parlour
##elle
##lest
hopes
##res
foreign
furniture
friendly
##sibility
handker
##ann
balance
jul
outl
guil
myster
happens
kings
fanc
##nal
mour
frame
cleared
massive
subst
swords
easter
adj
peculiar
##pleas
desperate
stopping
render
##aries
outer
dogs
hudd
extended
recognize
##vin
guilty
ardent
shardbearer
##ival
released
suffering
prepare
vall
companions
families
crown
warning
cocked
##cle
fu
tradition
evidently
trial
interview
degree
handkerchief
##bar
slid
philos
philosop
manif
ise
separate
puff
veh
chain
suspicion
##ulation
warri
iseutz
encoun
##idly
##ulf
wal
exerc
##attering
highly
cong
guessed
dign
deeper
track
princ
clut
attent
frowning
##ubs
shaw
remarkable
destruction
parted
chaos
stars
rode
grief
details
officer
deserve
pouch
morrie
aut
signs
eh
assuming
device
preach
##shire
sket
gras
recovered
bedroom
insisted
dur
ettie
flight
lamp
term
member
##ators
##ena
dining
resour
##arked
kicked
harder
##lar
gab
imperial
hosp
##icle
robes
ec
##urd
kindly
hummed
changing
forming
dus
access
consideration
rolling
friendship
winds
##icking
ben
fabrial
##oke
waste
mas
terrified
dart
blast
hav
underne
pool
depth
harsh
hunting
local
##aging
faster
underneath
honors
delic
delighted
lane
resc
conc
corpses
scru
ward
dreams
glory
aim
female
violent
lone
inquisitor
##wea
recomm
visited
bask
##iring
##acles
##uable
rubbed
footstep
fled
survivor
spanreed
ishar
reject
horror
##whel
political
helping
explos
numbers
surprising
keen
dreadful
##apt
skirt
supply
dearest
lest
actual
ara
finish
sher
horiz
strang
affairs
behav
overwhel
nobility
weston
mile
disting
produced
centuries
awake
unm
picking
pile
##ailed
damnation
lashing
repro
unkn
regarding
officers
importance
whist
pages
agre
##alls
pistol
amid
concent
invited
##urs
climbing
distingu
cit
honestly
idiot
heir
dared
delightful
immediate
orn
chairs
trap
ate
madame
##uments
meat
refle
##gu
portion
beads
slip
mild
brid
response
hi
trem
compass
sell
##bridge
sof
##ervation
chapel
atop
kell
princip
march
##dle
christians
halcombe
engagement
deliber
severe
washed
mart
prayer
contact
midnight
liqu
magic
unhappy
shining
valley
brain
stage
brand
wes
neph
honorspren
flut
##ulate
fier
luc
prince
warned
governor
climb
spiritual
azish
##arch
series
exposed
##uce
nephew
charlie
prisc
wagon
##chan
actions
fruit
misery
kissed
net
inward
##ggs
rear
swept
provide
voidbringers
eagerly
marm
##acle
persons
mansion
concentr
incredible
vath
##enzo
hunt
objects
credit
split
##ucking
symb
demoux
shadesmar
dism
gained
##iven
despair
stern
facing
##oms
slept
yer
reports
supplies
modern
clubs
##acity
gor
capital
##ounce
tail
non
sang
seriously
encourage
ske
darcy
oathgate
duties
mental
coal
##eton
sedley
bord
store
invis
acting
carved
##ums
##vant
tapped
remembering
farmer
liter
nightm
disappointed
headed
raise
paying
##reg
##pes
hook
animal
gran
emily
spotted
##omp
holes
##rey
ech
maintain
refuge
##umm
becky
commission
lorry
til
laura
ribb
parson
thoroughly
doz
conven
giant
##ole
##atively
spinning
neverth
nevertheless
roll
defend
sett
ay
studying
bumble
##mund
proph
lat
pace
dusk
##rier
wheel
inner
forcing
muscles
preparing
tap
##epend
arrows
argument
transl
##ona
fever
possibility
louis
wol
ing
skull
##oul
ducked
monaster
pictures
possession
increased
##verse
arab
blew
feast
aid
investig
rand
flee
steerforth
fatig
bench
guide
##osure
modest
trapped
react
advanced
independ
treas
acted
##ancho
##opes
assault
edmund
sank
nights
##anqu
pockets
tempest
##ization
blessed
chir
##arge
##lected
unknown
informed
accompanied
##aks
whim
gain
nod
etern
extraord
practically
daily
crisp
##most
exceed
struggle
buck
tables
tan
princess
reference
disagree
entertain
##pers
ta
bubble
boxes
songs
##rod
spikes
priscilla
ardents
preferred
undert
corrupt
comment
bone
ink
selfish
snorted
##sey
hart
vines
shone
monster
nearest
##oman
example
messenger
##board
enjoyed
mechan
disappeared
content
##vert
pink
##hip
require
obst
marmad
marmaduke
ok
inclined
stained
survived
##nat
challen
mask
knightley
spores
lorenzo
aspect
remarked
feels
##aying
reputation
parties
neighbourhood
outward
stol
stun
invisible
feather
rules
addressed
chat
allomancer
departure
charged
changes
praise
coo
hollow
rout
jacket
##oor
##eden
shardplate
lesh
leshwi
described
intelligence
##war
pressing
bits
supper
milk
assem
landing
retreated
citiz
necessity
landsc
##ulted
fasc
hammer
overl
religious
oil
quarters
belonged
divine
gestured
exped
precious
writ
horrible
footsteps
kar
struggled
wishing
##osal
emerged
grateful
purch
##uced
gabri
buon
sib
echmen
shards
yanag
yanagawn
##acci
acknowledged
unconscious
##oses
##ounded
##rians
vac
dome
mighty
wake
valuable
plus
eastern
driving
entreat
##low
suspicious
sikes
symbol
arrive
likes
steal
##rop
stream
reasonable
official
chew
greatly
##rig
ignoring
medici
admiration
wisdom
orange
##ini
lover
nearer
firmly
nightmare
fired
stare
memor
possess
tucked
abandon
fairf
fairfax
shai
profess
##yer
recently
hopefully
panic
disturbed
closing
merc
ner
##case
##imate
rubbing
via
roial
humour
compreh
sixt
proceeded
waters
##heart
spell
illustration
lifeless
bowl
gabriel
halland
instance
relieved
stolen
consci
pressure
singing
##cher
variety
magnific
infer
##urity
extraordinary
cinder
preservation
abilities
##oria
sibling
arel
##mas
##ieve
agony
accent
scratch
lam
ragged
scattered
tel
cere
tip
text
devil
wiped
lightly
confess
aged
ruined
sac
birds
##eral
grab
##inces
allomantic
hallandren
bust
towns
mistaken
restr
vest
##anth
cabin
interf
steep
niece
ridiculous
grav
permission
##ases
revealing
init
summoned
royal
appropri
##ptions
shifted
phr
bars
##weaver
amused
fil
##esp
poured
contents
sum
calcul
mercy
lands
vessel
amazing
broughton
notebook
metalmind
title
faintly
preser
weeping
unre
laughter
wounds
delivered
palm
collapsed
barra
##erous
reward
feed
waves
kneeling
polite
elev
##ribes
ripp
fairl
vic
unb
blushed
##pless
renew
lege
legend
haul
hareton
cardinal
fairly
landscape
conscience
blowing
poison
pipe
agreement
distract
elendel
tz
##net
aug
resolution
thoughtful
stead
basket
possessed
conviction
rage
##coat
apprent
##leton
recru
fairlie
##water
benn
skar
yield
disappointment
efforts
##ourable
huddled
##ctions
frozen
herd
resem
disposed
sacrifice
acknowledge
proposed
tort
shouting
##zee
##unched
explod
feruch
feruchem
soulcaster
chick
coffee
##raction
charming
appeal
##istr
sezee
inev
structure
buonarr
unusual
dang
screaming
summon
wyndle
windrunners
##back
flower
affair
lux
impressed
qui
##enced
throughout
obsc
##sell
##usions
genu
arelon
dilaf
bark
##rous
##inding
income
##enched
cliff
insp
bay
butt
causing
##aus
##good
eames
##aughters
dozens
strangely
recon
contempt
glor
compassion
eleg
fee
century
compar
compet
clay
included
scale
hissed
ideal
kevin
downstairs
hid
worship
##yard
curtain
directions
delay
stable
police
craft
##incere
male
everywhere
strongly
shaped
fed
isab
rebeke
silently
jan
unse
joining
invitation
troubles
plainly
statement
trembled
groups
drank
jaw
creating
searched
cele
frequently
appreh
##bits
turns
oaths
##ront
catching
closely
grain
##zing
##rand
shap
##keeper
alt
gallant
dashed
celebr
elton
sympathy
prompt
remove
seeming
clerk
brick
pursu
gal
##ache
loving
curse
rub
jun
resear
yelled
rochester
gratitude
incon
##eland
ranks
glowed
surre
spears
thump
##quis
ens
##place
gesture
betrayed
acquainted
drunk
stool
##shot
cards
genuine
saddle
withdrew
##ints
railing
adop
##ob
refr
monst
sheep
lined
twisting
ages
bennet
brush
vig
rect
attachment
##win
politics
monastery
trif
inquiry
lake
##iently
relaxed
##initely
decor
##ooped
patient
fet
eleven
roo
smelled
blessing
##ich
affectionate
considerable
dick
folks
sharply
surgeon
dram
sincere
patro
daughters
##inate
upright
attended
##lessly
murmured
mystery
beer
precisely
communication
shooting
manifest
peter
singer
desired
reproach
horizon
colle
camilla
hotel
contrast
directed
objection
laws
hind
##udge
##rog
marks
woods
johnny
nurse
sailors
##eted
patience
sensible
reflected
immort
troubled
shuff
ice
sounding
##ano
excl
persuaded
perse
generous
arrow
knights
season
chim
mult
unp
abrupt
unpleas
struggling
recover
##uls
##road
compared
##isions
helpless
thumb
groaned
intense
defeat
flung
social
sentiment
##bby
cage
scan
##isces
glyph
tzim
amusement
ded
intend
offering
branches
flow
dumb
axe
##row
inches
isabella
maps
tzimisces
shud
improve
fulf
burden
illness
doubted
contrary
rus
gradually
sculpture
compliment
apartment
mix
deserved
prod
kids
jesus
garth
david
toogood
carap
annoyed
persuade
respectable
planned
liberty
##erson
convey
clasped
mixed
melancho
melancholy
crazy
patterns
dug
slope
murdstone
tells
altern
chuckled
beating
sufficient
dragged
guilt
squeezed
trail
##aggers
##olinar
farewell
absor
maria
##akened
straw
crit
dismissed
fires
bullet
dagger
fund
kholinar
subm
affected
damp
formal
insist
flick
remains
heading
careless
discussion
##while
serving
repeat
weary
##iour
##cence
ignorant
grant
duke
disposition
##lo
burg
attract
function
reality
senses
stunned
exercise
flame
gam
kinds
committed
pow
merchant
tomb
accur
thief
duel
bozzle
scribes
glyde
highprinces
shift
christmas
ceased
gazed
rushing
deny
##irmed
prisoner
occasional
##grat
crouched
workers
reflection
##arse
##icles
date
strict
ka
colored
##ider
ashe
allomancers
##oying
swallowed
crowded
hungry
resumed
diamond
fagin
cy
rosa
disturb
chambers
hastily
succeeded
mysterious
advance
badly
ignorance
joke
##pled
tones
dwell
scream
redd
accomplished
animals
thrill
##bey
walker
revealed
forever
bert
squad
frustration
constantly
loyal
circumstance
##istry
hearts
observe
brut
shivered
keeps
frustr
toler
stor
carapace
facts
dignity
accomplish
recent
univers
imagination
packed
illusion
challenge
establish
attitude
humble
##ourse
herbert
awaken
##gest
descended
relationship
##smith
solitary
handful
##bted
stirred
nay
yo
assistance
##azed
assembly
enth
downward
##ael
##gun
alumin
aluminum
chiri
##aid
dislike
shed
parting
posture
##arded
##aper
contradi
punishment
hatred
active
heights
crushed
pron
##imar
##ahel
desir
##fall
ascend
heavily
discovery
behaviour
##reek
notion
consent
funeral
blocks
remus
nancy
illumin
guns
##bbled
halfway
dressing
silk
conclusion
labour
covering
inex
##mod
pitch
determination
##onstr
begg
##urance
chase
smith
##ana
thie
masters
crime
flushed
humming
protection
sleeve
rif
edward
llar
llarimar
united
##akers
sentence
##isl
bing
favourite
flag
failure
moral
darkey
surrounding
whispering
defarge
troy
thread
gardens
sons
bos
condem
contest
minor
appears
lonely
##lying
sensation
##kins
poet
victory
transfer
monks
withdraw
boldwood
cases
iv
insult
elbow
##irling
##oting
alongside
ped
bush
##isher
version
cane
raff
champ
sixteen
coward
disgrace
floating
swift
##port
nation
gaunt
ba
seal
##mple
tact
##omb
natured
wandered
altered
hopeless
ram
american
personally
dan
wings
intr
ole
basement
inquisitors
zahel
arrangement
race
protected
intimate
soil
medical
flowing
relations
enh
sack
indicated
paul
separated
startled
ends
lots
deliver
armed
robe
scent
##atory
##natural
proudie
homeland
terribly
interests
avail
rig
centre
education
sink
amiable
wandering
statue
bleed
dul
beaten
liquid
bothered
serge
announced
leis
unpleasant
shortly
union
##pher
threatened
bleeding
cosm
limbs
dried
collection
bridges
woodhouse
nik
bridgeman
description
laying
##orter
warn
imprison
swore
judging
bertram
grabbing
generation
agitation
fence
rack
vale
exhaust
wolf
blo
investiture
windrunner
begged
leisure
indiffer
difficulties
batt
##borough
experienced
brass
rang
owned
swinging
appropriate
barn
briefly
##shaw
slowed
roughs
marrying
meanwhile
exceedingly
saving
##lla
bite
exchange
eyebrows
resources
chains
bunch
lashed
##unting
##sal
##ograph
bigger
##ops
random
aux
bullets
lighted
hither
rip
##ifying
##oused
milton
lin
rows
##itating
##aved
pursued
rings
constable
slumped
aloud
scorn
utterly
crept
pup
develop
highest
archit
presum
##fire
basically
location
emph
occasions
hed
remembr
corresp
correspond
domest
endless
uttered
##artha
convince
shapes
overhead
bast
blanket
seventy
darling
remo
staircase
stretching
extent
butter
effects
expand
healing
instr
squire
attun
dashwood
lighteyed
model
ger
visitor
guest
utmost
completed
depths
##fulness
##iers
wrist
newsp
architect
script
twink
uh
stu
commanded
sash
pretending
kingdoms
constables
bingley
##ares
movements
lawyer
##amped
annoyance
advent
famous
partner
tainted
labor
encl
privile
claims
subtle
doc
fifth
bould
##ki
childhood
hem
basin
vanity
pant
noticing
martha
eaten
produce
instructions
legal
tapping
designed
fabrials
cultiv
checking
##bid
perpet
fascin
quarrel
observation
oddly
##coming
##icating
monk
##mother
sees
perceived
##rim
scen
vault
corners
enthus
nun
reader
edged
replaced
ladder
drawings
middlemar
remarkably
##ertion
awakened
minister
quality
##inent
##ader
satur
shelter
nowhere
middlemarch
vathah
granacci
glimpse
gloom
safely
slightest
brave
lifting
bid
##idding
##woman
echoed
establ
lav
heap
swim
ki
appearing
carving
flared
wemm
wemmick
rooft
warcamps
fatigue
##iny
nort
##min
crossing
shim
##wall
robarts
dueling
dine
bew
sprang
stole
granted
inch
tob
debt
continuing
controlled
captured
scratched
##ications
barrel
##asingly
##ems
branch
abst
practical
responsibility
research
slipping
hogg
ascension
michelle
chasmf
chasmfiend
##ldom
##ek
curled
responded
blur
##eer
embarrassed
jumping
survey
cares
folk
finest
##eg
eur
solic
##adar
mirror
household
violence
teaching
sixty
disagreeable
threatening
##ipp
ug
darkened
weigh
##itate
tightly
luke
##atives
myth
sheets
cave
briggs
freder
frederick
##llen
##ocr
perman
hay
sore
beasts
healed
portra
attempted
nails
vial
crews
lovely
seldom
dix
bye
proposal
cathed
ox
soothing
bess
sofa
##ocation
##ounds
monarch
midst
##enses
##gious
eldest
misfortun
existed
dab
pil
ridge
attacking
normally
buzz
parsonage
filling
enjoying
estate
complain
##ef
detect
##master
prevented
appreciate
mortal
fury
##umps
inher
retired
protest
manip
thumble
soulcast
iadon
rein
insane
suggestion
ropes
smallest
mink
swing
jasper
bru
pencil
##ird
cannon
crashed
blushweaver
shore
consequences
breathe
calls
##eem
sex
##vii
owe
explosion
likewise
arc
gon
increasingly
elliot
ladisl
mc
expense
hush
complaint
danced
uneasy
ministry
seed
bosom
represented
europe
lingered
anti
disgu
bin
artist
dad
conflict
screen
noblemen
##isham
aon
ghostblood
cousins
timid
##lets
exception
taller
conceal
shorter
drown
avoided
detail
counted
guy
ladislaw
vincy
horne
rusts
dixon
##ante
recommend
##cast
inconven
distinctly
tranqu
sacred
overcome
activity
patron
scheme
gang
audience
nobleman
divided
remn
grewgious
havisham
fj
##icity
prayers
offended
reed
respected
allowing
flashed
collar
club
##ded
homes
congrat
scared
fah
perspect
blackness
florent
tale
pros
clust
cathedral
accommod
prime
uncommon
sla
embrace
happily
histor
bil
sheath
celia
buonarroti
balls
enjoyment
indifference
treatment
dise
inhab
crystal
##ern
##udged
chant
release
range
forgiven
kent
luft
flipped
balat
cot
urged
leaf
trunk
subjects
awa
tenderness
endure
obed
awe
elderly
##wick
fortress
nap
simpl
##iciently
##zzled
##over
immense
murdered
tie
reform
sneak
region
ish
dereth
tonk
unseen
##rose
button
washing
##sy
related
folding
inspecting
##uther
meetings
listeners
##lock
pillar
sliding
mish
alter
introduced
collected
##orous
expressions
jenn
images
clar
negoti
cheque
burgess
stairwell
singular
equip
crimson
habits
elsewhere
accounts
talent
string
ours
savage
scal
paris
smashed
huck
bead
hats
catherick
tyn
maya
ribbon
##ooping
sweeping
bible
magnificent
cad
##iday
performed
overt
settling
caution
tools
hospital
cathy
frantic
goal
chull
nightblood
lunch
eighteen
bride
bonnet
harv
opinions
merchants
rescue
loudly
sideways
tended
##apse
experiment
narrowed
git
##lings
furious
slam
punch
vehicle
attendants
##ifically
soames
sergeant
##aleb
shotgun
honey
nest
composed
attrib
stands
##pir
##mering
altar
##mony
launched
dalry
lufton
volume
##otted
minded
hood
##ugs
bates
##vas
blades
trailing
barchester
brandon
salay
qual
describe
differently
declare
genius
tid
earned
promises
aven
chis
goodness
volunt
saturday
sequ
##wor
ruins
surrender
partly
clung
indifferent
resolve
hence
employed
vul
astonishment
fleet
maintained
zeal
alco
disaster
clara
idle
shawl
sple
obli
northern
resent
stout
snatched
##lit
##oles
encouraged
revel
##ussed
##verted
jar
security
##inity
earnshaw
piet
chasms
dalrymple
estella
absent
lasted
guests
haunted
wheels
owner
##rust
pains
##alf
##vi
lesson
electric
cav
expert
cig
gy
faithful
established
##bbling
warrior
sticking
outhouse
venge
edges
##thorn
##ancer
everstorm
tien
capacity
italy
undou
counting
ray
calmly
keeper
knocking
tossing
fierce
western
funny
services
rumors
fores
lighter
##ulting
drifted
excess
visiting
gazing
twist
##raced
states
nic
perspective
haw
shepher
##rete
##zi
tels
telsin
inquiries
remembrance
deadly
vio
##berg
hearted
jewels
confirm
jac
specifically
##ola
uri
crispark
##bless
tv
renoux
preced
reserved
undoubted
theory
cries
gap
successful
secured
num
##othed
expensive
siege
crisparkle
cosmere
hoid
lukel
pretended
devoted
arrangements
glasses
chances
##omes
##umes
profound
kick
sniff
rebellion
soup
realizing
silas
congden
dobre
dobrev
liy
liyun
fancied
moss
loun
domestic
indignation
wherever
wan
option
ceremony
replace
seats
bart
shepherd
##alai
elegy
accompany
##egr
obeyed
benefit
views
popular
heavenly
rights
lively
bands
wool
impressive
##roll
lucy
uriah
godf
jez
herdaz
charm
august
louder
impul
azure
behalf
gloves
##inter
ult
##rees
sout
glorious
##olic
cher
inse
biddy
haired
##icted
pursuer
tense
traveling
archers
boot
candles
fac
##ciously
piano
issue
##xim
fos
brit
phrase
##eu
stabbed
walter
##brother
rhythms
receiving
splend
nav
spending
hitherto
fortnight
rejected
##itution
shifting
preparation
##aud
shelf
million
##kind
##ouncing
sem
spoon
mont
claw
penrod
ialai
observing
##lands
reserve
##riages
gravel
brushed
overlook
restless
grinning
saint
tele
tas
hovering
stumbling
formation
##line
screw
resisted
##fl
grange
pounding
charred
ferr
farebrother
peeked
voidlight
newly
amongst
strolled
sus
abroad
loves
anticipated
ware
prosper
indulg
wil
contain
##acc
torment
absurd
fortunate
rounded
##asion
terr
exploded
floated
violet
julia
blackthorn
aladar
##inged
##atically
mourning
##pton
blown
haste
carpet
regiment
disgust
##oop
##vere
spectacles
##ari
stretch
rifle
##entially
marched
roads
crawled
##arm
immortal
target
lessons
perple
ming
evident
residence
alike
sinking
drained
wander
rash
shove
##urg
coast
citizen
##apor
##ington
angle
confront
tough
unmade
tents
##zzy
elantrians
frost
##leness
pover
poverty
ugly
forbidden
anch
unnatural
digging
##lim
repair
deput
curr
betrayal
fabric
churn
godfrey
jaggers
karata
drehy
display
##olate
steadily
tempor
characters
mant
jennings
dow
overse
##eel
baron
shaft
churchill
perim
gaot
gaotona
rushu
shardbearers
plateaus
gratas
intelligent
gover
impatient
visits
limited
melted
era
plates
edgar
collapse
whipped
concrete
hogglest
hogglestock
##ldo
establishment
towers
hired
russell
damage
##ounted
argue
##elling
##nded
essence
negro
boss
##unks
creation
elm
pits
ellen
##oline
shit
leo
bondsmith
khar
motive
##inine
sadly
gravity
arguments
greet
undoubtedly
oppress
##rict
rapid
lung
##pent
madam
freely
confirmed
vaguely
southern
interfere
sweep
tracks
bundle
alert
godd
hitting
exeter
topp
screams
scribe
nikli
visitors
folly
canal
hunger
expectation
oppon
bowing
chicken
runs
##ogue
route
mate
fosco
lurched
horneater
jah
stormbless
prem
admire
subd
forwards
tax
##ulating
clenched
executed
alight
reveal
ost
keys
inclination
decent
##agged
total
glared
construct
nuncombe
studio
blond
robur
basic
huh
kiin
rosh
roshone
victim
contemplation
tempted
thankful
execution
##oqu
upset
irre
becomes
stealing
unst
mounted
reluctantly
##bor
##uts
scouts
##moor
newcom
telri
telrii
ghostbloods
sorts
appointed
specul
flowed
roused
sheer
unch
outs
intimid
grieve
stubb
games
vor
encouraging
rim
fjord
regal
##eled
ponder
softened
##cest
##fol
##isk
commands
occupation
##zza
##sels
shouts
driver
porch
dair
proven
equipment
stormblessed
secretly
desert
based
ital
##oot
wiping
reaction
exagger
captive
whoever
grandfather
##ule
weird
cigar
rooftop
gritted
keved
shuden
encounter
rapidly
college
hyp
flour
risen
sevent
fools
agitated
sust
theat
##roph
ak
fake
grasp
churches
expedition
applied
core
professional
contradict
diag
##van
meantime
interior
sport
sip
siever
perimeter
particulars
incident
stamp
lieut
reported
sleeves
glare
departed
spreading
housekeeper
wre
witch
quit
choo
concept
fork
pad
backs
determine
vend
##iliary
garr
ladrian
kharbr
kharbranth
allik
feminine
convenient
##shine
arose
perceive
boards
probable
fellows
arist
beggar
alarmed
##ortion
##osph
ramp
initial
xxx
tension
cros
depos
woke
shroud
canvas
cracks
vengeance
valet
gesturing
cordie
travelling
sufficiently
persist
barg
piled
unwilling
drawer
lieuten
##rily
yawn
numerous
madness
pulse
sealed
##ological
stubborn
##gers
##inkled
thieves
tide
vote
inevitable
jezri
jezrien
timbre
depress
borne
cri
confron
goods
desperately
parent
depends
wasted
purse
solitude
nerves
pouring
##lers
lanterns
thirt
##usive
robb
responsible
inspected
dairy
outf
allen
sule
shy
longed
lawn
awoke
announce
echoing
widow
repu
earnestly
refresh
embarrassment
gloomy
urge
##ddy
requested
deaths
tilney
azir
deliberately
streaming
roar
glit
##necess
trim
reckon
poorly
##vet
increase
endeavour
compr
cant
emerg
admin
shew
whispers
apologize
##otes
scient
pig
rejoined
auxiliary
carve
border
casual
##ardo
zipped
aradel
spared
contri
##ffled
##otte
mount
rendered
ancest
guarded
intellect
disease
discussed
loft
rational
sew
lamps
es
restored
daylight
pole
instincts
narrative
##otic
studies
gripped
alleyway
theirs
implied
doubts
bending
admired
lowering
blows
##force
tore
liv
scow
achieve
instrument
tour
handing
france
apple
topic
rit
arabin
forear
yanked
neighbours
##blance
abruptly
believing
unnecess
condes
conject
##olent
##itty
pillow
deserted
##uting
results
eyeing
fant
firing
potential
rushworth
awes
swirling
astonished
mob
continually
sketches
cheap
hesitation
smiles
literally
steam
clinging
apparent
##itched
vind
##uding
dol
mons
favorite
ruby
phone
satch
recollection
independent
landlord
scold
concluded
newspaper
comparison
elegant
snap
gn
rent
defeated
sez
substance
ja
##walk
roared
##rels
##fingers
urber
storage
neville
squat
giov
somed
someday
satchel
bleeder
berto
bertoldo
idris
chimney
absorbed
##ucky
healthy
##yr
curt
articles
underground
##inction
cun
magistr
unlock
guardian
professor
entry
destination
consumed
patted
conference
prisoners
breaths
monsters
statues
remnants
julius
decades
##ball
practiced
heartbe
##bie
conway
sebar
sebarial
giul
moan
autumn
##bilities
##wr
darker
injury
injured
waiter
discom
##riety
unlikely
##uish
curling
lodge
tray
fewer
heels
desolation
saluted
ledge
scrambling
##top
norr
norris
warriors
rubble
bandits
blushing
readily
tut
restore
answering
greek
consolation
mistakes
cush
fatal
emphas
poo
##ountain
fel
bottles
prior
rider
##allo
collins
sensed
len
treasure
veins
distinguished
intimacy
reven
finds
signific
##rils
##ox
bapt
virtue
##pered
##uary
##bbles
hastened
mankind
assassins
strate
##esco
attuned
lia
willough
dabbid
listener
sunshine
increasing
protecting
oct
vel
##standing
##iser
charlotte
appointment
attending
##onomy
##itations
advantages
addressing
offence
ade
devotion
confined
fountain
mead
available
nelly
slamming
thigh
bounced
peaks
parshman
contented
desirable
italian
deepest
##ulations
##esting
##bour
esteem
inquire
ringing
lords
rely
medic
testament
purple
heartily
##ached
bolt
distraction
worlds
knives
cats
##ode
noting
misfortune
alien
mercen
hopped
wentworth
uniforms
tunn
tumbled
consult
passionate
shows
frequent
explaining
dict
overwhelmed
##ensity
##oes
supported
logic
##ifully
wond
performance
flock
##anta
##engers
percent
limmer
limmeridge
willoughby
mcc
standard
baff
motionless
naked
native
tick
##liness
lesser
##atisf
obtained
encouragement
defense
separation
champion
students
bodygu
bored
guild
dej
ending
vicar
apply
scenes
strangers
tang
penet
##rated
eternal
attacks
infant
writh
sale
generations
stump
rod
snapping
##ada
infused
lx
arena
skybre
relative
shadowed
##teen
fest
suited
##gings
fog
wholly
lect
eagerness
clam
brutal
beds
sixth
certainty
combat
hovered
jim
haze
population
dial
coinc
imagining
enhanced
bulk
intrig
boulder
pulsed
tunnels
sangallo
bluefingers
blinking
winced
fourteen
prud
humili
complexion
anxiously
linen
churchyard
boast
silvery
##cipl
compliments
peered
mak
enthusias
enthusiasm
german
kin
crash
capture
deputy
peas
largest
putney
attentions
absently
frustrated
dobbs
crosbie
stewart
##hearts
allrian
allrianne
intentions
decisions
impulse
cups
failing
circular
penny
dealing
degrees
pled
shaken
##alled
slapped
thoughtfully
stalk
##izes
##cript
phot
mansfield
blues
##ptim
dejau
fuck
bloodied
safehand
yeden
convocation
akane
##acious
fragments
##edy
delicacy
##vial
beloved
register
leap
ascertain
closet
seize
seventeen
punct
preparations
thanked
philosophy
hilt
pia
surprisingly
ank
demands
mail
haven
stalked
##astes
mishram
piero
employment
plac
concerning
accordingly
dw
carr
heavens
bags
err
attracted
reconc
##verage
##iqu
forem
motives
monday
comprehend
attempts
allies
##asy
originally
overth
improved
toes
drops
coachman
subs
fi
sorcer
##plom
##inus
##watch
ley
leyten
submit
complicated
##time
opposition
disappro
tumbling
endeavoured
afore
ventured
teacher
division
ener
shutters
ferv
effective
claws
slaughter
##pit
##uity
chaise
beam
reass
splin
roth
dominance
hesitantly
elantrian
veden
expectations
background
sworn
gay
propriety
violently
renewed
pursuit
shilling
behold
barracks
strongest
solution
bor
pav
purchase
scand
##rial
diplom
nar
incredibly
radio
seon
kad
doomed
polished
reception
unique
na
secretary
dresses
brisk
privilege
##ements
phant
tatt
sized
illuminated
crush
davy
nightmar
##veled
jastes
##bud
evenings
luxury
##annel
crowds
happier
smoking
ti
##oe
referred
##gates
wret
sparr
##sibly
hints
roughly
communicate
amazement
nim
amazed
accepting
leaping
spat
disturbing
cracking
sources
quarry
wickfield
honorbl
##kill
vendell
stonemoor
hath
rude
jealousy
carts
coloured
principal
openly
plun
atm
##osphere
stuffed
errand
tips
previously
speaker
invite
##icious
pronounced
flute
talents
arrog
##hor
##ete
florentine
slaught
##yat
##onar
disli
apology
counsel
##ril
lodgings
moreover
merry
gig
interpret
dazed
lieutenant
prett
incap
provo
martin
##enberg
displayed
verd
poked
sorceress
ritual
bolo
bologn
culture
clicked
nightmares
iyat
iyatil
aust
conquer
##with
placing
definitely
recalled
brings
darted
latch
assistant
highway
cake
assemb
tavern
pillars
dodged
retrie
##ees
silverbridge
dejauzi
peeking
camon
glys
sarc
exquis
willingly
estim
permanent
begging
dy
##ensible
lend
consist
torch
distinguish
##igger
waistcoat
ingen
theme
score
retire
dripping
closest
momentum
presumably
shinov
shinovar
##lak
positive
cris
exquisite
dreary
shops
##irled
ornament
uncon
obtain
flin
accus
humanity
winning
agent
traitor
orph
interposed
select
gutenberg
bi
jury
partially
halt
bellowed
monsie
monsieur
charco
traditional
caleb
sashan
warcamp
tues
tuesday
pudd
adjust
marching
career
encountered
caval
grunt
##berry
idly
wilder
sections
records
stored
milit
manor
tattoo
wickham
galb
galbator
galbatorix
##gra
##ember
dimin
##uously
flu
instructed
sway
associated
daring
removing
barrier
bred
inval
speck
adopted
curved
beings
unfair
portrait
piazza
feeding
kicking
adult
##veying
coats
##icism
shoving
gallery
caravan
limp
flaw
##opp
scraping
stey
ripping
traveled
##uro
windspren
vorin
hera
hurriedly
bursting
fading
blocked
mutual
##oped
whit
distinction
lee
heaved
vine
##icit
ribs
emmy
sham
stores
worrying
dolph
steyne
##nox
##aste
walks
overp
amusing
##outs
resolute
carriages
subdued
nove
intervals
hurrying
tales
feeble
vex
republ
curiously
##xture
discipl
strain
totally
thri
suspicions
declined
##ribution
##itute
sticks
mumbled
essential
cod
robert
unner
crunch
forge
charcoal
chasing
urberville
kan
kele
kelek
tvlak
tvlakv
partial
pausing
sighing
##cile
learnt
vivid
unnecessary
sunk
remote
##ference
merit
riot
##tes
ratt
cursing
##utions
assigned
behaved
role
doll
crawling
neatly
##uated
sneaking
##anor
##inations
crashing
disguise
fishing
charging
tipped
fresco
sculptor
shields
patrol
rammed
suse
susebr
susebron
infinite
longing
trace
##usal
ruled
creeping
exting
reli
brighter
falls
republic
positions
##ciples
blunt
clearing
cure
pump
##lessness
##ties
envelop
construction
salt
lust
posts
##iders
scandal
nu
gaw
##isse
boring
noura
ere
additional
faults
vital
coughed
##actory
##long
justified
audible
anno
brim
clue
##jud
pinch
lion
erect
repent
##cloth
whip
chips
patri
cuff
glist
terrif
ruth
##cross
demanding
carton
chatting
terrisman
coinshot
neturo
mmm
purposes
speaks
curtains
noon
payment
necessarily
composure
ashes
inferior
tyrant
signed
anchor
assurance
tune
gracious
plantation
rivers
product
nigger
##version
buttons
discarded
twins
fascinating
university
##gro
soph
liddy
scars
marner
skills
fuzz
colorful
##maid
shelves
hedge
waking
application
mode
requires
creep
repeatedly
fitted
torture
trusting
revenge
bows
stirring
creak
distrust
intending
borr
chased
growth
buff
##mark
columns
trib
murderer
villain
brownlow
intric
guine
slim
vanish
manette
##por
generals
spald
##iana
lowick
okay
edith
##lin
cock
error
degr
sober
opposed
lungs
snar
induced
flaring
emergency
wrath
plaster
tremble
##che
##ients
resistance
wing
interval
overwhelming
##bows
stark
hauled
followers
thumping
squinted
##opo
maneu
kadash
savonar
savonarola
ghirl
ghirland
signoria
##ailing
realised
lingering
asks
misunder
pond
hasty
##ashes
furnished
acts
grumbled
atmosphere
##ixed
needle
prize
approve
holds
##ige
avenue
poetry
containing
sincerely
recovering
##pin
impart
revolution
wept
##inals
##boy
scaff
scaffold
##han
hartfield
hartright
highstorms
kelly
##ovico
materials
solemnly
gravely
brightly
bun
unreason
neglect
scowled
expressing
follows
attendance
exit
bind
ef
lasting
unim
couch
popped
shimmering
##gen
shardblades
quellion
notum
ghirlandai
lodovico
satisfy
##asm
founded
wildly
principle
ashley
justify
gasping
comprom
quant
##avement
##idents
conversations
lied
liberal
sheriff
dump
vir
thirteen
inscri
yelling
wilderness
sliced
caroline
diagram
duc
glyphs
reddi
naught
##pre
bewild
propose
ju
complained
feature
wealthy
worries
embro
passages
strikes
annoying
admiral
##onies
persisted
salute
##gl
bomb
ambition
yel
scut
opponent
patches
soared
spen
session
##rum
fleeing
permian
refugees
leadership
honorbear
rival
##udes
neglected
restraint
depended
beach
warehouse
remonstr
guided
fashioned
sets
prejud
fists
shivering
pleasing
exposing
grandmother
##mons
species
eth
shuffled
editor
shallow
reduced
mand
chiefly
dangling
miracle
michael
chewing
pross
emotional
ladyship
##amor
##isa
pavil
blankets
bute
rockbud
narak
ghirlandaio
compelled
thy
leads
owed
burnt
integr
##mber
sate
remarks
dismal
graceful
cash
impatience
appet
needing
supposing
##bber
diso
clutched
dais
legends
stall
giles
dusty
examined
beacon
sprou
##pa
surged
relatively
musgro
heep
optim
aram
obs
kor
peaceful
snuff
sailing
##keness
fluttering
##cies
interc
carn
sickness
##ns
honourable
judged
inhabit
stroke
probability
doubtful
belly
operation
##mered
complaining
hardened
scratching
calculated
majestic
arriving
cleaning
hindley
destro
##bot
tay
barkis
choices
hesitant
##vek
hopeful
cultivation
selected
brushing
##uming
bargain
revere
science
tops
denied
urgent
introduction
cob
rattled
assembled
##gic
frightening
dock
transformation
##usc
##lor
##ggan
plastic
artists
impact
trotwood
thorne
ranette
##bringer
concealed
railway
apt
flatter
warmly
conquered
fearful
proceedings
defiance
fain
caring
interference
temporary
attentive
exhaustion
slick
graves
omin
identity
angrily
##alt
travell
##kers
awakening
dragging
thor
charity
connections
doctr
promising
arts
##gon
garrison
milborough
urb
kab
oathgates
messer
questioning
governess
likeness
##itively
forgetting
trades
advise
percept
belonging
puffing
interpre
include
outra
romantic
leon
criminal
goss
advancing
islands
blink
il
##ected
##itably
knuck
escaping
confronted
bearded
darn
durdles
raffles
voidbringer
lightwe
rayse
frock
shrank
brace
blaz
confessed
higg
discl
liking
noises
recognised
principles
##aggered
constr
innate
tasted
review
##ira
humor
##down
bells
document
plot
bastard
bonds
rebu
devices
mini
bandit
tobias
guys
uvek
zellion
exhib
painfully
farmers
crisis
bitterness
adding
##neys
toast
oldest
defence
formerly
dashing
##ieties
introduce
click
retreating
dealt
piles
##urst
whar
scam
jogged
concentrated
locks
anat
lydia
cycle
technically
religions
rift
options
interact
obligator
kabsal
evi
curls
##icy
adjusted
ii
eyel
childish
cordial
refusing
extingu
rug
innocence
parag
condescend
##reet
brains
energ
gifts
fade
concerns
christianity
shells
avoiding
eloqu
##ivity
cautious
bucket
load
crouching
incons
returns
horrified
corridors
spalding
nas
commander
beld
##istine
browne
bunk
flashlight
gonna
lennox
meals
bitterly
latest
objections
##icien
punish
##esy
offices
kissing
wagons
suits
frighten
achieved
eternity
rattling
dreamed
perception
indulgence
skilled
youngest
##amb
philosopher
proceeding
##armed
sam
congreg
##boro
##iver
surveyed
floors
dah
darnay
invested
math
yal
hillside
prodd
darkeyed
huio
gyorn
hushed
welcom
resemblance
sul
crushing
extending
deaf
puzzled
horrid
loaded
##iter
muttering
coughing
mock
proc
cuts
pleasures
writer
youthful
corrupted
smack
jobs
apprentice
areas
muscle
british
peak
killer
pumble
pumblech
pumblechook
teod
dined
signal
##cut
resign
defer
independence
##eared
velvet
moist
echoes
lazy
frail
crook
catholic
##bation
noah
planted
transport
apost
##ica
##bell
currently
mare
transformed
##antically
##anni
stance
eond
eondel
exertion
conditions
confession
circles
favourable
heed
prey
sturd
coarse
bushes
fetched
approved
presume
web
robbed
snatch
carpent
flare
bram
deepness
cobb
crypt
shots
engineers
mussel
grimaced
gemheart
contess
contessina
thude
susan
haz
mills
##itching
nois
respecting
questioned
backwards
bef
staggered
combined
mixture
hinted
tooth
lid
weeds
veget
##itory
wrists
ted
boats
scraped
envy
reverse
marquis
interse
scanned
pavilion
forests
##bris
vibrant
silh
silhou
giovanni
coalition
wigg
hallways
arteth
edwar
edwarn
jacopo
##hi
##agers
resource
comforting
##icable
overh
politeness
article
sugar
preserve
casting
##owering
drawers
damned
accidentally
wrest
superst
cellar
##gia
compound
footing
drinks
chisel
raft
panicked
sanderson
hemal
##killer
##heard
respectful
dares
nost
bloss
##cers
tyr
ancestors
rustling
clutching
pir
dwelling
respects
beforehand
##antial
moves
flur
wretch
syll
flooded
sequence
tearing
motions
fad
link
##eld
robbery
edwin
wars
cargo
ald
items
baronet
louisa
georgy
bern
translu
kenton
##stim
glances
trifle
strip
nervously
wagg
slack
flav
##ishly
embroid
pacing
discomfort
imply
spies
steward
inspired
##igning
straining
passions
conspir
##olence
##iner
begins
tendency
jokes
evapor
alternative
protr
crad
quarre
##esc
##ration
awkwardly
rav
essentially
taylor
emerald
fencing
operative
slaughtered
noh
##aam
musselboro
mcbr
jak
vstim
ulim
instinctively
welcomed
logical
exchanged
##etime
foundation
oxford
stillness
crawl
sandy
safer
splendid
##ardy
fragment
comfortably
discussing
loyalty
obedience
mourn
arguing
doubtless
grinding
ruck
discern
orch
drain
dramatic
sorter
##ka
switch
theatre
treaty
legged
halted
fren
alliance
prow
##rium
wire
debris
##ndi
beldre
surgeb
derethi
ishnah
wards
irres
pear
deed
sooth
intercourse
distressed
ribbons
civility
##eous
higgins
debts
fret
thirst
headache
proportion
commanding
cheese
skirts
selling
cooking
##ext
worsh
experiences
nations
slide
attempting
accurate
beheld
senior
tricks
jerked
##uman
poking
helmet
##oway
arabella
cem
overs
##ancers
chantat
alin
nohadon
ulaam
discont
##writing
quivering
grieved
##iveness
providing
impatiently
##liament
irritation
wages
confer
##erved
##vy
sullen
shill
indisp
##ulously
indust
##aver
threats
underm
fathers
imprisoned
mixing
jet
padd
june
slender
uses
barbar
argued
indicate
bricks
muddy
##amation
stress
community
stacks
thresh
moor
jerry
defin
spine
spenlow
skept
hmm
alendi
occupy
gear
##iation
reverence
aye
examine
bug
intensity
stated
finishing
affections
repeating
cogn
bills
suspended
##cts
observ
##any
destiny
sentiments
forbid
rapt
involve
bandage
portal
designs
worthless
nobles
##oph
campa
lordship
swimming
blackwater
outfit
calloway
fatren
temptation
extrav
extravag
crust
blazing
voy
usher
parliament
blackened
constitution
##retion
conveyed
hagg
sailor
##etically
precaut
untr
##inated
permitted
escort
vanishing
##ography
worksh
##imately
castle
chalk
reapp
whil
caverns
recruit
##ador
bologna
nick
cemet
cemetery
burns
paintings
highbury
relevant
fucking
mcbride
##imir
translucent
##rex
nal
dural
duralumin
metalminds
hesina
colot
##ousing
decidedly
extern
banks
binding
cheerfully
##just
salvation
flashing
speeches
appreciated
stooped
unacc
puffed
combination
pavement
anticipation
fluttered
##asty
seemingly
jam
wen
conne
wreck
ez
pony
mines
spur
jaco
mentioning
villages
convict
##ffic
mug
choosing
whilst
striding
hips
student
keepers
matched
pulsing
primary
reserves
widened
thorpe
breastplate
obligators
mistings
lunamor
ivory
apr
grasped
integrity
wipe
haught
misty
wider
procession
dreaded
district
shillings
lace
muffled
sensitive
saun
cunning
##aments
exciting
williams
oust
inspection
medicine
protested
suppressed
##idity
##mel
eighty
code
shoe
tank
drum
copyright
retorted
wives
##oom
butler
foul
jon
guarding
sunset
ambass
emul
##ician
gripping
vert
durbey
durbeyfield
flicked
herdazian
lightweaving
thundercl
darkeyes
qin
barrack
curve
july
disple
strained
refined
decis
opportunities
horseback
improvement
humility
##olated
yourselves
choked
##iate
prayed
incapable
baffled
sanct
sturdy
borrowed
emphasis
deem
dissatisf
quitted
fitting
phantom
types
traced
talks
battles
distrib
dense
furiously
dissol
hul
radiance
illusions
aggress
theology
lucie
convention
blasted
mos
beliefs
barge
prettyman
supposedly
fadrex
yalb
gorge
alas
diz
rendering
##hound
satisfactory
hospit
recognition
obligation
##erted
honesty
positively
fid
##piece
discovering
benev
sparks
fing
desperation
induce
revelation
matron
investigation
located
condemned
pained
universe
guid
constructed
muck
og
scanning
formations
mama
historical
clements
adele
forearm
bike
shocking
disliked
monot
lifetime
consol
drifting
severely
marvel
unite
anguish
##hile
mac
mischief
fow
plunged
powder
citizens
winding
##cr
tugged
attendant
mov
condemn
sly
mingled
twin
boiled
connex
marbles
orth
neighbor
trigg
glove
hello
ghosts
communicated
detailed
##udging
outst
stables
yah
spilled
fuel
groom
campaign
fram
gotta
matisse
azimir
unjust
tenderly
insign
infinitely
##ilight
vulgar
nich
scrap
irreg
irregular
appetite
flickering
testim
liar
tires
evangel
enclosed
